const unsigned char model[] = {
  0x1c, 0x00, 0x00, 0x00, 0x54, 0x46, 0x4c, 0x33, 0x14, 0x00, 0x20, 0x00,
  0x1c, 0x00, 0x18, 0x00, 0x14, 0x00, 0x10, 0x00, 0x0c, 0x00, 0x00, 0x00,
  0x08, 0x00, 0x04, 0x00, 0x14, 0x00, 0x00, 0x00, 0x1c, 0x00, 0x00, 0x00,
  0x98, 0x00, 0x00, 0x00, 0xf0, 0x00, 0x00, 0x00, 0x78, 0x08, 0x00, 0x00,
  0x88, 0x08, 0x00, 0x00, 0x2c, 0x0e, 0x00, 0x00, 0x03, 0x00, 0x00, 0x00,
  0x01, 0x00, 0x00, 0x00, 0x10, 0x00, 0x00, 0x00, 0x00, 0x00, 0x0a, 0x00,
  0x10, 0x00, 0x0c, 0x00, 0x08, 0x00, 0x04, 0x00, 0x0a, 0x00, 0x00, 0x00,
  0x0c, 0x00, 0x00, 0x00, 0x1c, 0x00, 0x00, 0x00, 0x3c, 0x00, 0x00, 0x00,
  0x0f, 0x00, 0x00, 0x00, 0x73, 0x65, 0x72, 0x76, 0x69, 0x6e, 0x67, 0x5f,
  0x64, 0x65, 0x66, 0x61, 0x75, 0x6c, 0x74, 0x00, 0x01, 0x00, 0x00, 0x00,
  0x04, 0x00, 0x00, 0x00, 0x90, 0xff, 0xff, 0xff, 0x0a, 0x00, 0x00, 0x00,
  0x04, 0x00, 0x00, 0x00, 0x08, 0x00, 0x00, 0x00, 0x6f, 0x75, 0x74, 0x70,
  0x75, 0x74, 0x5f, 0x30, 0x00, 0x00, 0x00, 0x00, 0x01, 0x00, 0x00, 0x00,
  0x04, 0x00, 0x00, 0x00, 0x6e, 0xf7, 0xff, 0xff, 0x04, 0x00, 0x00, 0x00,
  0x0e, 0x00, 0x00, 0x00, 0x6b, 0x65, 0x72, 0x61, 0x73, 0x5f, 0x74, 0x65,
  0x6e, 0x73, 0x6f, 0x72, 0x5f, 0x36, 0x00, 0x00, 0x02, 0x00, 0x00, 0x00,
  0x34, 0x00, 0x00, 0x00, 0x04, 0x00, 0x00, 0x00, 0xdc, 0xff, 0xff, 0xff,
  0x0d, 0x00, 0x00, 0x00, 0x04, 0x00, 0x00, 0x00, 0x13, 0x00, 0x00, 0x00,
  0x43, 0x4f, 0x4e, 0x56, 0x45, 0x52, 0x53, 0x49, 0x4f, 0x4e, 0x5f, 0x4d,
  0x45, 0x54, 0x41, 0x44, 0x41, 0x54, 0x41, 0x00, 0x08, 0x00, 0x0c, 0x00,
  0x08, 0x00, 0x04, 0x00, 0x08, 0x00, 0x00, 0x00, 0x0c, 0x00, 0x00, 0x00,
  0x04, 0x00, 0x00, 0x00, 0x13, 0x00, 0x00, 0x00, 0x6d, 0x69, 0x6e, 0x5f,
  0x72, 0x75, 0x6e, 0x74, 0x69, 0x6d, 0x65, 0x5f, 0x76, 0x65, 0x72, 0x73,
  0x69, 0x6f, 0x6e, 0x00, 0x0e, 0x00, 0x00, 0x00, 0x84, 0x07, 0x00, 0x00,
  0x7c, 0x07, 0x00, 0x00, 0x0c, 0x07, 0x00, 0x00, 0x3c, 0x05, 0x00, 0x00,
  0x20, 0x05, 0x00, 0x00, 0xf0, 0x04, 0x00, 0x00, 0xa8, 0x04, 0x00, 0x00,
  0xa8, 0x00, 0x00, 0x00, 0xa0, 0x00, 0x00, 0x00, 0x98, 0x00, 0x00, 0x00,
  0x90, 0x00, 0x00, 0x00, 0x88, 0x00, 0x00, 0x00, 0x68, 0x00, 0x00, 0x00,
  0x04, 0x00, 0x00, 0x00, 0x22, 0xf8, 0xff, 0xff, 0x04, 0x00, 0x00, 0x00,
  0x54, 0x00, 0x00, 0x00, 0x0c, 0x00, 0x00, 0x00, 0x08, 0x00, 0x0e, 0x00,
  0x08, 0x00, 0x04, 0x00, 0x08, 0x00, 0x00, 0x00, 0x10, 0x00, 0x00, 0x00,
  0x24, 0x00, 0x00, 0x00, 0x00, 0x00, 0x06, 0x00, 0x08, 0x00, 0x04, 0x00,
  0x06, 0x00, 0x00, 0x00, 0x04, 0x00, 0x00, 0x00, 0x00, 0x00, 0x00, 0x00,
  0x00, 0x00, 0x0a, 0x00, 0x10, 0x00, 0x0c, 0x00, 0x08, 0x00, 0x04, 0x00,
  0x0a, 0x00, 0x00, 0x00, 0x01, 0x00, 0x00, 0x00, 0x02, 0x00, 0x00, 0x00,
  0x04, 0x00, 0x00, 0x00, 0x06, 0x00, 0x00, 0x00, 0x32, 0x2e, 0x31, 0x36,
  0x2e, 0x31, 0x00, 0x00, 0x82, 0xf8, 0xff, 0xff, 0x04, 0x00, 0x00, 0x00,
  0x10, 0x00, 0x00, 0x00, 0x31, 0x2e, 0x35, 0x2e, 0x30, 0x00, 0x00, 0x00,
  0x00, 0x00, 0x00, 0x00, 0x00, 0x00, 0x00, 0x00, 0xac, 0xf3, 0xff, 0xff,
  0xb0, 0xf3, 0xff, 0xff, 0xb4, 0xf3, 0xff, 0xff, 0xb8, 0xf3, 0xff, 0xff,
  0xae, 0xf8, 0xff, 0xff, 0x04, 0x00, 0x00, 0x00, 0xf0, 0x03, 0x00, 0x00,
  0xde, 0x7a, 0xb0, 0xbe, 0x3e, 0x92, 0x13, 0x3e, 0x91, 0x4e, 0xd0, 0x3e,
  0x80, 0x8f, 0xa2, 0xbd, 0x79, 0x54, 0xba, 0x3e, 0x8f, 0x39, 0xcb, 0x3e,
  0x7b, 0x28, 0xc9, 0xbe, 0xe6, 0x8c, 0xcb, 0xbe, 0x53, 0x42, 0xa4, 0xbe,
  0x9a, 0xf0, 0x76, 0x3e, 0x0d, 0x73, 0x90, 0x3e, 0x5f, 0xdd, 0xa7, 0x3e,
  0x83, 0xc9, 0x57, 0xbe, 0xf7, 0xb3, 0xc4, 0x3e, 0x2b, 0x5d, 0xab, 0x3e,
  0x4b, 0xba, 0x97, 0x3e, 0x47, 0x47, 0x68, 0xbe, 0x56, 0xa6, 0x85, 0xbe,
  0xa3, 0xdb, 0xda, 0xbe, 0x73, 0x5d, 0xa2, 0x3e, 0xf1, 0xf9, 0x1b, 0x3c,
  0x30, 0xd0, 0x6d, 0x3e, 0x18, 0xdc, 0xfc, 0x3d, 0xb4, 0x53, 0xc8, 0xbe,
  0xae, 0xb1, 0x8a, 0x3e, 0x50, 0x81, 0xe3, 0xbd, 0x70, 0xfc, 0xd6, 0xbe,
  0x50, 0x54, 0xb2, 0x3d, 0x25, 0xf2, 0x8e, 0x3e, 0x0c, 0x1c, 0x9e, 0x3e,
  0xa1, 0xc6, 0xa0, 0x3d, 0xdd, 0xfc, 0x4d, 0xbd, 0x53, 0x14, 0x52, 0x3e,
  0x73, 0xa9, 0xda, 0xbe, 0x3f, 0x4a, 0x35, 0xbd, 0x85, 0x12, 0x11, 0x3d,
  0x3a, 0x7f, 0xa2, 0x3d, 0x9c, 0xee, 0xe8, 0x3b, 0xa5, 0x52, 0x18, 0xbe,
  0x14, 0x8c, 0x93, 0x3e, 0x43, 0xa6, 0x92, 0x3e, 0xb3, 0xfb, 0xa4, 0xbd,
  0xb9, 0x63, 0x21, 0xbc, 0x17, 0x99, 0x05, 0x3e, 0xfb, 0x11, 0xd7, 0x3d,
  0xbc, 0x25, 0x56, 0xbe, 0x3f, 0x73, 0xf9, 0xbe, 0xd2, 0x5d, 0xef, 0xbd,
  0x2a, 0xd6, 0x2e, 0x3c, 0xb1, 0x48, 0xe0, 0xbe, 0xdb, 0x74, 0xa9, 0x3c,
  0x4c, 0x37, 0x30, 0xbe, 0xb3, 0xb3, 0x3b, 0x3d, 0xcd, 0x06, 0x5d, 0xbd,
  0xe0, 0xc7, 0x82, 0x3e, 0x5e, 0x14, 0x6e, 0xbe, 0x48, 0x6f, 0x7b, 0x3e,
  0x7a, 0x6c, 0x2e, 0xbe, 0xdc, 0xd8, 0x75, 0xbd, 0xa1, 0xb5, 0xf3, 0xbe,
  0xe6, 0x86, 0xa0, 0xbd, 0x17, 0x9f, 0xae, 0xbd, 0xc5, 0x8f, 0x83, 0xbd,
  0x30, 0x6d, 0x25, 0xbe, 0x22, 0x03, 0xb8, 0x3d, 0x16, 0x14, 0x8b, 0x3e,
  0x8f, 0x30, 0x9d, 0x3e, 0x2d, 0xa0, 0xa0, 0x3e, 0x35, 0x01, 0xd7, 0xbe,
  0xa4, 0x86, 0x19, 0xbe, 0x4a, 0xc5, 0xab, 0xbe, 0x0d, 0x11, 0x7b, 0x3e,
  0x4e, 0x02, 0xeb, 0x3d, 0xb5, 0x08, 0x6d, 0x3c, 0xad, 0xf9, 0x9d, 0x3c,
  0x28, 0x20, 0x23, 0x3e, 0x90, 0xb1, 0x48, 0xbe, 0xfd, 0x29, 0x95, 0xbe,
  0x83, 0x8f, 0x53, 0x3e, 0x9a, 0x84, 0xbe, 0xbe, 0xc4, 0xbf, 0xc1, 0xbe,
  0xeb, 0x15, 0xb2, 0xbe, 0xbc, 0x63, 0xf1, 0xbe, 0x5c, 0x6d, 0x16, 0xbe,
  0xaf, 0x4d, 0x55, 0x3e, 0xac, 0x34, 0x10, 0xbe, 0x73, 0x14, 0xc1, 0xbe,
  0x8d, 0x9f, 0x7b, 0xbe, 0x3f, 0xd4, 0x83, 0xbe, 0x67, 0xff, 0x08, 0xbd,
  0x83, 0xb7, 0xf9, 0x3c, 0x04, 0xdf, 0x22, 0x3a, 0xd9, 0x68, 0x4f, 0xbe,
  0x34, 0x14, 0xf4, 0xbe, 0xe0, 0x44, 0x82, 0xbe, 0x62, 0xe6, 0xee, 0xbe,
  0x2e, 0xef, 0xbe, 0xbd, 0x04, 0x0d, 0x8e, 0x3d, 0xb0, 0xaf, 0xd5, 0xbe,
  0x20, 0x14, 0xfe, 0x3d, 0x27, 0x0d, 0xbf, 0x3d, 0x23, 0xc1, 0x94, 0xbe,
  0xb3, 0x11, 0x6c, 0x3e, 0x4c, 0x45, 0x0a, 0xbf, 0x01, 0xcc, 0x3f, 0x3e,
  0xfa, 0x2f, 0x7d, 0x3e, 0xc0, 0x4c, 0x5b, 0xbe, 0xe2, 0x6c, 0xbd, 0x3d,
  0xf6, 0x74, 0xa9, 0xbe, 0x37, 0x64, 0xc6, 0x3d, 0x5a, 0xd5, 0x40, 0x3e,
  0x70, 0x35, 0xd8, 0xbe, 0x5e, 0xdc, 0xe6, 0xbe, 0xa4, 0x56, 0x6b, 0x3e,
  0xa5, 0xab, 0x7d, 0x3e, 0xb5, 0xf5, 0xe3, 0xbd, 0x67, 0xf5, 0x5e, 0x3d,
  0x11, 0x3a, 0xb2, 0xbd, 0xdd, 0xf1, 0xa4, 0x3d, 0xf2, 0xb0, 0xab, 0xbe,
  0x76, 0x08, 0x81, 0x3e, 0x5e, 0x49, 0x20, 0x3e, 0xce, 0x47, 0x34, 0xbe,
  0x15, 0x5e, 0x9e, 0x3e, 0xc1, 0xef, 0x88, 0xbd, 0x97, 0x05, 0x65, 0xbd,
  0x93, 0x53, 0xbe, 0x3e, 0x54, 0x9b, 0xca, 0x3d, 0x21, 0x4e, 0xdb, 0x3e,
  0x30, 0xc0, 0x0d, 0xbd, 0xec, 0xc1, 0xcd, 0xbe, 0x5a, 0x24, 0x46, 0x3e,
  0xd8, 0x84, 0x14, 0xbe, 0x41, 0x93, 0xb6, 0xbe, 0xb3, 0xd8, 0xb1, 0xbe,
  0x04, 0xfc, 0xc4, 0x3d, 0xd0, 0xda, 0xe9, 0x3c, 0xfe, 0xf8, 0xd6, 0xbe,
  0x2c, 0x87, 0xd8, 0xbe, 0x6f, 0xcc, 0x81, 0x3e, 0x78, 0xf3, 0xc2, 0xbd,
  0x50, 0x75, 0x59, 0xbd, 0xa6, 0x5d, 0x59, 0x3e, 0x96, 0xaf, 0x78, 0x3e,
  0xe0, 0xb4, 0x7d, 0x3c, 0xf6, 0xa9, 0xc8, 0xbe, 0x89, 0x07, 0x3f, 0xbe,
  0xa0, 0x78, 0x8c, 0xbc, 0x4e, 0x36, 0xa1, 0xbe, 0x4c, 0x4c, 0xc6, 0x3d,
  0x76, 0xc0, 0x2b, 0xbe, 0x1a, 0x0a, 0x05, 0x3e, 0xab, 0x92, 0x84, 0x3e,
  0x90, 0x59, 0x35, 0xbe, 0x3c, 0x33, 0x97, 0xbe, 0x50, 0x43, 0x7d, 0xbd,
  0x5a, 0x63, 0x0f, 0xbe, 0x50, 0x68, 0x3c, 0x3d, 0x0a, 0x4d, 0x14, 0xbe,
  0xa0, 0x19, 0x42, 0xbd, 0xf8, 0x28, 0x34, 0xbe, 0x8a, 0xba, 0x47, 0x3e,
  0x2e, 0x7e, 0x84, 0xbe, 0x74, 0x8a, 0xaa, 0xbd, 0x5a, 0x96, 0x79, 0x3e,
  0x40, 0x17, 0xb5, 0xbb, 0x20, 0xc4, 0xa0, 0xbe, 0xce, 0xde, 0x4a, 0x3e,
  0xc8, 0xdf, 0x06, 0xbe, 0xe2, 0x19, 0x38, 0x3e, 0x2e, 0x1c, 0x15, 0x3e,
  0xc7, 0x9a, 0x89, 0x3e, 0x50, 0x42, 0xa4, 0xbc, 0x52, 0x9d, 0x1f, 0xbe,
  0xa0, 0x0c, 0x94, 0xbd, 0x34, 0xf8, 0x9a, 0xbe, 0x86, 0x7a, 0x4f, 0x3e,
  0x20, 0xab, 0x38, 0x3d, 0x04, 0xfb, 0xf7, 0x3d, 0xc5, 0xef, 0xc0, 0xbe,
  0x00, 0x2c, 0x25, 0x3e, 0x8f, 0xfc, 0x76, 0xbe, 0x2f, 0xb3, 0x56, 0xbe,
  0x1a, 0xcd, 0x9e, 0x3e, 0x2c, 0x3e, 0xb1, 0x3e, 0x28, 0xb0, 0xb6, 0x3e,
  0xa3, 0xf7, 0x0e, 0xbe, 0xc6, 0xd9, 0xee, 0xbe, 0x60, 0x4e, 0x74, 0x3e,
  0xd4, 0x9e, 0x4b, 0x3e, 0x5d, 0xdd, 0x58, 0xbe, 0xd8, 0x03, 0xbb, 0xbe,
  0xb5, 0xa6, 0xce, 0xbe, 0x2f, 0xf3, 0xa0, 0x3e, 0xb8, 0x70, 0x5d, 0x3e,
  0x39, 0xae, 0x89, 0xbd, 0x36, 0xb8, 0xc6, 0xbe, 0xdf, 0x27, 0xca, 0xbe,
  0x48, 0x7e, 0xf7, 0x3e, 0xc7, 0xa2, 0x88, 0xbd, 0xe8, 0x73, 0x2d, 0x3e,
  0xfc, 0x44, 0xaf, 0x3e, 0x5d, 0x63, 0x9f, 0xbe, 0x97, 0xd6, 0xdd, 0x3e,
  0xd8, 0x9f, 0x8d, 0xbd, 0xa6, 0x2c, 0xdf, 0x3d, 0x21, 0x45, 0x6e, 0x3c,
  0xce, 0x02, 0xa1, 0x3e, 0xac, 0x5d, 0x6f, 0x3e, 0xdb, 0x54, 0xcc, 0x3e,
  0x80, 0x05, 0xb9, 0xbe, 0x72, 0xd6, 0x55, 0xbe, 0xe1, 0x1b, 0xd4, 0x3e,
  0x48, 0x65, 0xff, 0xbd, 0x22, 0x04, 0xd8, 0x3e, 0xaf, 0xa4, 0x96, 0xbd,
  0xe2, 0xe2, 0x83, 0xbe, 0xbe, 0x7a, 0x8f, 0x3d, 0xfa, 0x06, 0x03, 0x3e,
  0x9b, 0xb3, 0xb9, 0xbe, 0x2f, 0xee, 0x8a, 0x3e, 0xb4, 0xdd, 0x30, 0xbd,
  0xd4, 0x30, 0x30, 0xbe, 0x27, 0x16, 0x0a, 0x3d, 0x8d, 0xdb, 0xb7, 0xbe,
  0x06, 0x1b, 0x60, 0x3c, 0xc3, 0x53, 0xac, 0x3e, 0xda, 0x7c, 0x3f, 0x3e,
  0x52, 0xef, 0x24, 0x3e, 0x14, 0xf6, 0x8c, 0x3e, 0x1a, 0x2e, 0x06, 0xbe,
  0x15, 0x9e, 0xc3, 0x3e, 0x4a, 0x2f, 0xe8, 0xbe, 0x6d, 0x62, 0x7c, 0xbe,
  0x85, 0x33, 0xea, 0x3d, 0xfa, 0x85, 0xd5, 0xbe, 0xb5, 0x75, 0xbf, 0xbd,
  0x1b, 0xcb, 0x9b, 0xbe, 0x8f, 0xcf, 0x8e, 0xbc, 0xd4, 0x04, 0xa1, 0xbe,
  0x08, 0x74, 0xd6, 0xbd, 0x1d, 0x66, 0x5a, 0x3e, 0xab, 0x6f, 0xb2, 0xbe,
  0x75, 0xde, 0xff, 0xbc, 0x15, 0xba, 0x1e, 0x3e, 0x21, 0x01, 0x5c, 0xbe,
  0x21, 0x76, 0x52, 0x3e, 0x35, 0x3f, 0x6e, 0x3d, 0x52, 0x0a, 0x88, 0xbe,
  0xb4, 0x00, 0x03, 0x3e, 0x65, 0x68, 0xe2, 0xbc, 0x65, 0x0d, 0xb2, 0x3c,
  0xaa, 0xfc, 0xff, 0xff, 0x04, 0x00, 0x00, 0x00, 0x38, 0x00, 0x00, 0x00,
  0x00, 0x00, 0x00, 0x00, 0x0d, 0xd7, 0x37, 0xbd, 0x8d, 0x75, 0xf2, 0xbd,
  0x11, 0xf3, 0xdb, 0xbd, 0x6c, 0xad, 0x17, 0xbe, 0x9a, 0xa7, 0x1e, 0xbe,
  0xc8, 0xfe, 0xd8, 0xbd, 0x00, 0x00, 0x00, 0x00, 0x00, 0x00, 0x00, 0x00,
  0x00, 0x00, 0x00, 0x00, 0x0c, 0xfd, 0x66, 0xbd, 0x29, 0xba, 0x82, 0x3d,
  0xc1, 0xd5, 0x33, 0xbd, 0xe5, 0x43, 0xb3, 0xbd, 0xee, 0xfc, 0xff, 0xff,
  0x04, 0x00, 0x00, 0x00, 0x20, 0x00, 0x00, 0x00, 0x7e, 0x6b, 0xa1, 0x3e,
  0x26, 0x60, 0x3c, 0xbe, 0xad, 0x09, 0xb4, 0x3e, 0xe0, 0x93, 0x3e, 0xbe,
  0xe9, 0x7d, 0x56, 0xbe, 0x71, 0x4b, 0x22, 0x3f, 0x73, 0x6c, 0x00, 0x3f,
  0xd9, 0xd6, 0x3b, 0xbe, 0x1a, 0xfd, 0xff, 0xff, 0x04, 0x00, 0x00, 0x00,
  0x0c, 0x00, 0x00, 0x00, 0xc4, 0x34, 0x1e, 0x3f, 0x80, 0x79, 0x17, 0xbf,
  0x17, 0x15, 0x32, 0xbf, 0x32, 0xfd, 0xff, 0xff, 0x04, 0x00, 0x00, 0x00,
  0xc0, 0x01, 0x00, 0x00, 0x80, 0x44, 0x1c, 0x3d, 0xc2, 0x53, 0xeb, 0xbe,
  0x07, 0x6d, 0x96, 0x3e, 0xa5, 0x30, 0xe3, 0xbd, 0xd4, 0xdb, 0x32, 0x3e,
  0x5a, 0x79, 0x64, 0xbd, 0x4f, 0xc7, 0x43, 0xbe, 0x8e, 0x6c, 0x8a, 0x3e,
  0x66, 0x82, 0xa0, 0x3e, 0xa6, 0xd0, 0xda, 0x3e, 0xff, 0x6f, 0x27, 0x3d,
  0x45, 0x4d, 0xf8, 0xbe, 0xfa, 0x07, 0x4c, 0x3e, 0xea, 0xa8, 0x10, 0x3e,
  0x60, 0x3c, 0xb4, 0xbc, 0xa2, 0x98, 0x0e, 0xbe, 0x39, 0xb3, 0xe4, 0x3e,
  0xa2, 0xc4, 0xa1, 0x3e, 0x60, 0x0a, 0x86, 0xbd, 0x46, 0x4f, 0xd1, 0x3e,
  0x55, 0xc8, 0x84, 0x3e, 0xb5, 0x16, 0x02, 0xbf, 0xb0, 0x0c, 0x8b, 0x3e,
  0x38, 0xf6, 0x8b, 0x3d, 0x91, 0x85, 0x8a, 0xbe, 0x7f, 0x01, 0xe6, 0xbe,
  0x02, 0x6e, 0x15, 0xbf, 0xa1, 0x46, 0xc7, 0xbe, 0x00, 0x97, 0x2d, 0x3d,
  0x6a, 0x0d, 0xdd, 0x3e, 0x37, 0xa3, 0xc0, 0xbe, 0xc5, 0x08, 0x34, 0xbe,
  0xd8, 0xcc, 0xf1, 0xbd, 0x12, 0x6c, 0xe6, 0x3e, 0x9c, 0xdd, 0x80, 0xbe,
  0x00, 0xd5, 0xf0, 0xbd, 0xa4, 0xb6, 0x74, 0xbe, 0xe0, 0xe1, 0xd9, 0xbd,
  0xed, 0x25, 0xbc, 0x3e, 0x69, 0x23, 0x5d, 0xbd, 0xea, 0x32, 0xf9, 0x3e,
  0x72, 0x1c, 0xf4, 0xbe, 0xd0, 0xe6, 0x2b, 0x3e, 0xad, 0x08, 0x28, 0x3e,
  0xe5, 0x01, 0x60, 0x3e, 0x5a, 0x64, 0xc2, 0x3c, 0xdc, 0x9b, 0xe4, 0xbc,
  0x34, 0x18, 0xe7, 0x3d, 0xfc, 0xeb, 0xd2, 0x3e, 0x69, 0x26, 0x97, 0xbe,
  0xe8, 0x11, 0xe7, 0x3d, 0x64, 0x74, 0xca, 0x3e, 0x63, 0xcd, 0x90, 0xbe,
  0x4a, 0x4a, 0x97, 0xbd, 0xaf, 0x0d, 0x2b, 0x3e, 0xc9, 0x8b, 0x86, 0xbe,
  0x3e, 0x06, 0xac, 0xbe, 0x71, 0x9e, 0x34, 0x3e, 0xb7, 0x11, 0xa2, 0x3e,
  0x69, 0xdf, 0x63, 0x3d, 0x19, 0xa6, 0xa6, 0x3e, 0xe8, 0x21, 0x08, 0xbe,
  0x2a, 0x13, 0xff, 0xbd, 0x88, 0x4c, 0x01, 0x3e, 0x92, 0xb0, 0x97, 0x3e,
  0xea, 0x9f, 0xa7, 0x3e, 0x21, 0x20, 0x62, 0xbe, 0xa5, 0x82, 0x01, 0xbf,
  0x83, 0x48, 0x81, 0x3e, 0x9b, 0x7b, 0xe8, 0xbe, 0x00, 0x22, 0xcf, 0xbe,
  0x5a, 0x48, 0x0a, 0xbd, 0xac, 0x36, 0x31, 0x3e, 0xb0, 0x47, 0x0f, 0xbe,
  0xed, 0xe7, 0xf2, 0x3b, 0x3b, 0xdc, 0x9a, 0xbe, 0x19, 0x57, 0x6d, 0x3e,
  0x4c, 0x18, 0x6d, 0xbe, 0xe0, 0x61, 0xb6, 0x3e, 0x52, 0xfb, 0xfb, 0x3e,
  0xb9, 0x93, 0x67, 0xbd, 0xdf, 0xf4, 0x17, 0xbe, 0x44, 0xe4, 0x9b, 0x3c,
  0x4a, 0x50, 0x9f, 0xbe, 0x2c, 0x60, 0x43, 0xbe, 0x01, 0x22, 0xe4, 0xbe,
  0x0b, 0xfc, 0x58, 0xbe, 0xc1, 0x7c, 0x03, 0xbe, 0x9c, 0x79, 0xba, 0x3d,
  0x4b, 0x61, 0x30, 0xbe, 0x46, 0x7e, 0x15, 0xbe, 0xf4, 0xb7, 0xa1, 0x3e,
  0x3f, 0x65, 0xad, 0xbe, 0xab, 0x7c, 0xdc, 0xbe, 0xb2, 0xfb, 0x36, 0xbe,
  0x01, 0x33, 0xcc, 0x3b, 0x0e, 0x44, 0x98, 0x3e, 0x99, 0x47, 0x63, 0x3c,
  0x94, 0x6a, 0xc0, 0xbd, 0x45, 0xd4, 0x9b, 0xbe, 0xd3, 0x4f, 0x88, 0x3e,
  0x72, 0x90, 0x1b, 0xbe, 0xaa, 0x4e, 0x8f, 0x3e, 0x00, 0x04, 0xfa, 0xbe,
  0x6d, 0xb0, 0x5b, 0xbe, 0x8c, 0xfa, 0x59, 0x3e, 0x26, 0xe5, 0xa2, 0x3e,
  0x50, 0xe1, 0x25, 0x3e, 0x88, 0xa5, 0x82, 0x3e, 0x68, 0x05, 0x8b, 0xbd,
  0xf1, 0x5a, 0xbc, 0x3e, 0x4b, 0x02, 0x89, 0x3e, 0xfe, 0xfe, 0xff, 0xff,
  0x04, 0x00, 0x00, 0x00, 0x60, 0x00, 0x00, 0x00, 0x6e, 0xe4, 0x00, 0x3f,
  0xd3, 0x76, 0x0b, 0xbf, 0x98, 0x79, 0x19, 0x3f, 0x60, 0x64, 0x89, 0xbe,
  0xe0, 0x00, 0x16, 0xbf, 0x18, 0x6d, 0x50, 0x3f, 0x1f, 0x06, 0xd9, 0x3e,
  0xf6, 0x3a, 0x01, 0x3f, 0x58, 0x60, 0x3a, 0x3e, 0xc9, 0x60, 0xd2, 0x3e,
  0xc1, 0x6f, 0x9c, 0x3e, 0xc7, 0x36, 0xed, 0x3e, 0x6f, 0xd6, 0xfa, 0xbe,
  0x36, 0x22, 0x2f, 0xbe, 0x3b, 0x7f, 0x4b, 0xbe, 0x46, 0xdb, 0x9b, 0x3e,
  0x8f, 0xf0, 0xbc, 0xbe, 0xf2, 0x38, 0xa8, 0xbd, 0xdb, 0x4e, 0x33, 0x3e,
  0x1b, 0xfa, 0x3b, 0xbe, 0xac, 0x1f, 0x90, 0x3e, 0x06, 0xd6, 0x8a, 0x3d,
  0xf3, 0x98, 0x1a, 0x3e, 0xbb, 0x0d, 0xb9, 0x3e, 0x78, 0xfa, 0xff, 0xff,
  0x7c, 0xfa, 0xff, 0xff, 0x0f, 0x00, 0x00, 0x00, 0x4d, 0x4c, 0x49, 0x52,
  0x20, 0x43, 0x6f, 0x6e, 0x76, 0x65, 0x72, 0x74, 0x65, 0x64, 0x2e, 0x00,
  0x01, 0x00, 0x00, 0x00, 0x14, 0x00, 0x00, 0x00, 0x00, 0x00, 0x0e, 0x00,
  0x18, 0x00, 0x14, 0x00, 0x10, 0x00, 0x0c, 0x00, 0x08, 0x00, 0x04, 0x00,
  0x0e, 0x00, 0x00, 0x00, 0x14, 0x00, 0x00, 0x00, 0x1c, 0x00, 0x00, 0x00,
  0x24, 0x01, 0x00, 0x00, 0x28, 0x01, 0x00, 0x00, 0x2c, 0x01, 0x00, 0x00,
  0x04, 0x00, 0x00, 0x00, 0x6d, 0x61, 0x69, 0x6e, 0x00, 0x00, 0x00, 0x00,
  0x04, 0x00, 0x00, 0x00, 0xcc, 0x00, 0x00, 0x00, 0x84, 0x00, 0x00, 0x00,
  0x50, 0x00, 0x00, 0x00, 0x14, 0x00, 0x00, 0x00, 0x00, 0x00, 0x0e, 0x00,
  0x1a, 0x00, 0x14, 0x00, 0x10, 0x00, 0x0c, 0x00, 0x0b, 0x00, 0x04, 0x00,
  0x0e, 0x00, 0x00, 0x00, 0x1c, 0x00, 0x00, 0x00, 0x00, 0x00, 0x00, 0x09,
  0x1c, 0x00, 0x00, 0x00, 0x20, 0x00, 0x00, 0x00, 0x01, 0x00, 0x00, 0x00,
  0x00, 0x00, 0x06, 0x00, 0x08, 0x00, 0x04, 0x00, 0x06, 0x00, 0x00, 0x00,
  0x00, 0x00, 0x80, 0x3f, 0x01, 0x00, 0x00, 0x00, 0x0a, 0x00, 0x00, 0x00,
  0x01, 0x00, 0x00, 0x00, 0x09, 0x00, 0x00, 0x00, 0x9a, 0xff, 0xff, 0xff,
  0x10, 0x00, 0x00, 0x00, 0x00, 0x00, 0x00, 0x08, 0x0c, 0x00, 0x00, 0x00,
  0x10, 0x00, 0x00, 0x00, 0x40, 0xfb, 0xff, 0xff, 0x01, 0x00, 0x00, 0x00,
  0x09, 0x00, 0x00, 0x00, 0x03, 0x00, 0x00, 0x00, 0x08, 0x00, 0x00, 0x00,
  0x01, 0x00, 0x00, 0x00, 0x03, 0x00, 0x00, 0x00, 0xca, 0xff, 0xff, 0xff,
  0x10, 0x00, 0x00, 0x00, 0x00, 0x00, 0x00, 0x08, 0x10, 0x00, 0x00, 0x00,
  0x14, 0x00, 0x00, 0x00, 0xba, 0xff, 0xff, 0xff, 0x00, 0x00, 0x00, 0x01,
  0x01, 0x00, 0x00, 0x00, 0x08, 0x00, 0x00, 0x00, 0x03, 0x00, 0x00, 0x00,
  0x07, 0x00, 0x00, 0x00, 0x02, 0x00, 0x00, 0x00, 0x04, 0x00, 0x00, 0x00,
  0x00, 0x00, 0x0e, 0x00, 0x16, 0x00, 0x00, 0x00, 0x10, 0x00, 0x0c, 0x00,
  0x0b, 0x00, 0x04, 0x00, 0x0e, 0x00, 0x00, 0x00, 0x18, 0x00, 0x00, 0x00,
  0x00, 0x00, 0x00, 0x08, 0x18, 0x00, 0x00, 0x00, 0x1c, 0x00, 0x00, 0x00,
  0x00, 0x00, 0x06, 0x00, 0x08, 0x00, 0x07, 0x00, 0x06, 0x00, 0x00, 0x00,
  0x00, 0x00, 0x00, 0x01, 0x01, 0x00, 0x00, 0x00, 0x07, 0x00, 0x00, 0x00,
  0x03, 0x00, 0x00, 0x00, 0x00, 0x00, 0x00, 0x00, 0x06, 0x00, 0x00, 0x00,
  0x05, 0x00, 0x00, 0x00, 0x01, 0x00, 0x00, 0x00, 0x0a, 0x00, 0x00, 0x00,
  0x01, 0x00, 0x00, 0x00, 0x00, 0x00, 0x00, 0x00, 0x0b, 0x00, 0x00, 0x00,
  0xe8, 0x03, 0x00, 0x00, 0x90, 0x03, 0x00, 0x00, 0x38, 0x03, 0x00, 0x00,
  0xfc, 0x02, 0x00, 0x00, 0xc0, 0x02, 0x00, 0x00, 0x68, 0x02, 0x00, 0x00,
  0x18, 0x02, 0x00, 0x00, 0x7c, 0x01, 0x00, 0x00, 0xe0, 0x00, 0x00, 0x00,
  0x60, 0x00, 0x00, 0x00, 0x04, 0x00, 0x00, 0x00, 0x5a, 0xfc, 0xff, 0xff,
  0x00, 0x00, 0x00, 0x01, 0x14, 0x00, 0x00, 0x00, 0x1c, 0x00, 0x00, 0x00,
  0x1c, 0x00, 0x00, 0x00, 0x0b, 0x00, 0x00, 0x00, 0x34, 0x00, 0x00, 0x00,
  0x02, 0x00, 0x00, 0x00, 0xff, 0xff, 0xff, 0xff, 0x03, 0x00, 0x00, 0x00,
  0x44, 0xfc, 0xff, 0xff, 0x1b, 0x00, 0x00, 0x00, 0x53, 0x74, 0x61, 0x74,
  0x65, 0x66, 0x75, 0x6c, 0x50, 0x61, 0x72, 0x74, 0x69, 0x74, 0x69, 0x6f,
  0x6e, 0x65, 0x64, 0x43, 0x61, 0x6c, 0x6c, 0x5f, 0x31, 0x3a, 0x30, 0x00,
  0x02, 0x00, 0x00, 0x00, 0x01, 0x00, 0x00, 0x00, 0x03, 0x00, 0x00, 0x00,
  0xb2, 0xfc, 0xff, 0xff, 0x00, 0x00, 0x00, 0x01, 0x14, 0x00, 0x00, 0x00,
  0x1c, 0x00, 0x00, 0x00, 0x1c, 0x00, 0x00, 0x00, 0x0a, 0x00, 0x00, 0x00,
  0x58, 0x00, 0x00, 0x00, 0x02, 0x00, 0x00, 0x00, 0xff, 0xff, 0xff, 0xff,
  0x03, 0x00, 0x00, 0x00, 0x9c, 0xfc, 0xff, 0xff, 0x3c, 0x00, 0x00, 0x00,
  0x73, 0x65, 0x71, 0x75, 0x65, 0x6e, 0x74, 0x69, 0x61, 0x6c, 0x5f, 0x31,
  0x5f, 0x31, 0x2f, 0x64, 0x65, 0x6e, 0x73, 0x65, 0x5f, 0x35, 0x5f, 0x31,
  0x2f, 0x4d, 0x61, 0x74, 0x4d, 0x75, 0x6c, 0x3b, 0x73, 0x65, 0x71, 0x75,
  0x65, 0x6e, 0x74, 0x69, 0x61, 0x6c, 0x5f, 0x31, 0x5f, 0x31, 0x2f, 0x64,
  0x65, 0x6e, 0x73, 0x65, 0x5f, 0x35, 0x5f, 0x31, 0x2f, 0x41, 0x64, 0x64,
  0x00, 0x00, 0x00, 0x00, 0x02, 0x00, 0x00, 0x00, 0x01, 0x00, 0x00, 0x00,
  0x03, 0x00, 0x00, 0x00, 0x2e, 0xfd, 0xff, 0xff, 0x00, 0x00, 0x00, 0x01,
  0x14, 0x00, 0x00, 0x00, 0x1c, 0x00, 0x00, 0x00, 0x1c, 0x00, 0x00, 0x00,
  0x09, 0x00, 0x00, 0x00, 0x74, 0x00, 0x00, 0x00, 0x02, 0x00, 0x00, 0x00,
  0xff, 0xff, 0xff, 0xff, 0x08, 0x00, 0x00, 0x00, 0x18, 0xfd, 0xff, 0xff,
  0x5a, 0x00, 0x00, 0x00, 0x73, 0x65, 0x71, 0x75, 0x65, 0x6e, 0x74, 0x69,
  0x61, 0x6c, 0x5f, 0x31, 0x5f, 0x31, 0x2f, 0x64, 0x65, 0x6e, 0x73, 0x65,
  0x5f, 0x34, 0x5f, 0x31, 0x2f, 0x4d, 0x61, 0x74, 0x4d, 0x75, 0x6c, 0x3b,
  0x73, 0x65, 0x71, 0x75, 0x65, 0x6e, 0x74, 0x69, 0x61, 0x6c, 0x5f, 0x31,
  0x5f, 0x31, 0x2f, 0x64, 0x65, 0x6e, 0x73, 0x65, 0x5f, 0x34, 0x5f, 0x31,
  0x2f, 0x52, 0x65, 0x6c, 0x75, 0x3b, 0x73, 0x65, 0x71, 0x75, 0x65, 0x6e,
  0x74, 0x69, 0x61, 0x6c, 0x5f, 0x31, 0x5f, 0x31, 0x2f, 0x64, 0x65, 0x6e,
  0x73, 0x65, 0x5f, 0x34, 0x5f, 0x31, 0x2f, 0x41, 0x64, 0x64, 0x00, 0x00,
  0x02, 0x00, 0x00, 0x00, 0x01, 0x00, 0x00, 0x00, 0x08, 0x00, 0x00, 0x00,
  0xc6, 0xfd, 0xff, 0xff, 0x00, 0x00, 0x00, 0x01, 0x14, 0x00, 0x00, 0x00,
  0x1c, 0x00, 0x00, 0x00, 0x1c, 0x00, 0x00, 0x00, 0x08, 0x00, 0x00, 0x00,
  0x74, 0x00, 0x00, 0x00, 0x02, 0x00, 0x00, 0x00, 0xff, 0xff, 0xff, 0xff,
  0x0e, 0x00, 0x00, 0x00, 0xb0, 0xfd, 0xff, 0xff, 0x5a, 0x00, 0x00, 0x00,
  0x73, 0x65, 0x71, 0x75, 0x65, 0x6e, 0x74, 0x69, 0x61, 0x6c, 0x5f, 0x31,
  0x5f, 0x31, 0x2f, 0x64, 0x65, 0x6e, 0x73, 0x65, 0x5f, 0x33, 0x5f, 0x31,
  0x2f, 0x4d, 0x61, 0x74, 0x4d, 0x75, 0x6c, 0x3b, 0x73, 0x65, 0x71, 0x75,
  0x65, 0x6e, 0x74, 0x69, 0x61, 0x6c, 0x5f, 0x31, 0x5f, 0x31, 0x2f, 0x64,
  0x65, 0x6e, 0x73, 0x65, 0x5f, 0x33, 0x5f, 0x31, 0x2f, 0x52, 0x65, 0x6c,
  0x75, 0x3b, 0x73, 0x65, 0x71, 0x75, 0x65, 0x6e, 0x74, 0x69, 0x61, 0x6c,
  0x5f, 0x31, 0x5f, 0x31, 0x2f, 0x64, 0x65, 0x6e, 0x73, 0x65, 0x5f, 0x33,
  0x5f, 0x31, 0x2f, 0x41, 0x64, 0x64, 0x00, 0x00, 0x02, 0x00, 0x00, 0x00,
  0x01, 0x00, 0x00, 0x00, 0x0e, 0x00, 0x00, 0x00, 0xb2, 0xfe, 0xff, 0xff,
  0x00, 0x00, 0x00, 0x01, 0x10, 0x00, 0x00, 0x00, 0x10, 0x00, 0x00, 0x00,
  0x07, 0x00, 0x00, 0x00, 0x2c, 0x00, 0x00, 0x00, 0x38, 0xfe, 0xff, 0xff,
  0x1f, 0x00, 0x00, 0x00, 0x73, 0x65, 0x71, 0x75, 0x65, 0x6e, 0x74, 0x69,
  0x61, 0x6c, 0x5f, 0x31, 0x5f, 0x31, 0x2f, 0x64, 0x65, 0x6e, 0x73, 0x65,
  0x5f, 0x33, 0x5f, 0x31, 0x2f, 0x4d, 0x61, 0x74, 0x4d, 0x75, 0x6c, 0x00,
  0x02, 0x00, 0x00, 0x00, 0x0e, 0x00, 0x00, 0x00, 0x12, 0x00, 0x00, 0x00,
  0xfe, 0xfe, 0xff, 0xff, 0x00, 0x00, 0x00, 0x01, 0x10, 0x00, 0x00, 0x00,
  0x10, 0x00, 0x00, 0x00, 0x06, 0x00, 0x00, 0x00, 0x38, 0x00, 0x00, 0x00,
  0x84, 0xfe, 0xff, 0xff, 0x2b, 0x00, 0x00, 0x00, 0x73, 0x65, 0x71, 0x75,
  0x65, 0x6e, 0x74, 0x69, 0x61, 0x6c, 0x5f, 0x31, 0x5f, 0x31, 0x2f, 0x64,
  0x65, 0x6e, 0x73, 0x65, 0x5f, 0x33, 0x5f, 0x31, 0x2f, 0x41, 0x64, 0x64,
  0x2f, 0x52, 0x65, 0x61, 0x64, 0x56, 0x61, 0x72, 0x69, 0x61, 0x62, 0x6c,
  0x65, 0x4f, 0x70, 0x00, 0x01, 0x00, 0x00, 0x00, 0x0e, 0x00, 0x00, 0x00,
  0x52, 0xff, 0xff, 0xff, 0x00, 0x00, 0x00, 0x01, 0x10, 0x00, 0x00, 0x00,
  0x10, 0x00, 0x00, 0x00, 0x05, 0x00, 0x00, 0x00, 0x1c, 0x00, 0x00, 0x00,
  0xd8, 0xfe, 0xff, 0xff, 0x0f, 0x00, 0x00, 0x00, 0x61, 0x72, 0x69, 0x74,
  0x68, 0x2e, 0x63, 0x6f, 0x6e, 0x73, 0x74, 0x61, 0x6e, 0x74, 0x33, 0x00,
  0x01, 0x00, 0x00, 0x00, 0x08, 0x00, 0x00, 0x00, 0x8a, 0xff, 0xff, 0xff,
  0x00, 0x00, 0x00, 0x01, 0x10, 0x00, 0x00, 0x00, 0x10, 0x00, 0x00, 0x00,
  0x04, 0x00, 0x00, 0x00, 0x1c, 0x00, 0x00, 0x00, 0x10, 0xff, 0xff, 0xff,
  0x0f, 0x00, 0x00, 0x00, 0x61, 0x72, 0x69, 0x74, 0x68, 0x2e, 0x63, 0x6f,
  0x6e, 0x73, 0x74, 0x61, 0x6e, 0x74, 0x32, 0x00, 0x01, 0x00, 0x00, 0x00,
  0x03, 0x00, 0x00, 0x00, 0xc2, 0xff, 0xff, 0xff, 0x00, 0x00, 0x00, 0x01,
  0x10, 0x00, 0x00, 0x00, 0x10, 0x00, 0x00, 0x00, 0x03, 0x00, 0x00, 0x00,
  0x1c, 0x00, 0x00, 0x00, 0x48, 0xff, 0xff, 0xff, 0x0f, 0x00, 0x00, 0x00,
  0x61, 0x72, 0x69, 0x74, 0x68, 0x2e, 0x63, 0x6f, 0x6e, 0x73, 0x74, 0x61,
  0x6e, 0x74, 0x31, 0x00, 0x02, 0x00, 0x00, 0x00, 0x08, 0x00, 0x00, 0x00,
  0x0e, 0x00, 0x00, 0x00, 0x00, 0x00, 0x16, 0x00, 0x18, 0x00, 0x14, 0x00,
  0x00, 0x00, 0x10, 0x00, 0x0c, 0x00, 0x08, 0x00, 0x00, 0x00, 0x00, 0x00,
  0x00, 0x00, 0x07, 0x00, 0x16, 0x00, 0x00, 0x00, 0x00, 0x00, 0x00, 0x01,
  0x10, 0x00, 0x00, 0x00, 0x10, 0x00, 0x00, 0x00, 0x02, 0x00, 0x00, 0x00,
  0x1c, 0x00, 0x00, 0x00, 0x9c, 0xff, 0xff, 0xff, 0x0e, 0x00, 0x00, 0x00,
  0x61, 0x72, 0x69, 0x74, 0x68, 0x2e, 0x63, 0x6f, 0x6e, 0x73, 0x74, 0x61,
  0x6e, 0x74, 0x00, 0x00, 0x02, 0x00, 0x00, 0x00, 0x03, 0x00, 0x00, 0x00,
  0x08, 0x00, 0x00, 0x00, 0x00, 0x00, 0x16, 0x00, 0x1c, 0x00, 0x18, 0x00,
  0x00, 0x00, 0x14, 0x00, 0x10, 0x00, 0x0c, 0x00, 0x00, 0x00, 0x00, 0x00,
  0x08, 0x00, 0x07, 0x00, 0x16, 0x00, 0x00, 0x00, 0x00, 0x00, 0x00, 0x01,
  0x14, 0x00, 0x00, 0x00, 0x20, 0x00, 0x00, 0x00, 0x20, 0x00, 0x00, 0x00,
  0x01, 0x00, 0x00, 0x00, 0x40, 0x00, 0x00, 0x00, 0x02, 0x00, 0x00, 0x00,
  0xff, 0xff, 0xff, 0xff, 0x12, 0x00, 0x00, 0x00, 0x04, 0x00, 0x04, 0x00,
  0x04, 0x00, 0x00, 0x00, 0x20, 0x00, 0x00, 0x00, 0x73, 0x65, 0x72, 0x76,
  0x69, 0x6e, 0x67, 0x5f, 0x64, 0x65, 0x66, 0x61, 0x75, 0x6c, 0x74, 0x5f,
  0x6b, 0x65, 0x72, 0x61, 0x73, 0x5f, 0x74, 0x65, 0x6e, 0x73, 0x6f, 0x72,
  0x5f, 0x36, 0x3a, 0x30, 0x00, 0x00, 0x00, 0x00, 0x02, 0x00, 0x00, 0x00,
  0x01, 0x00, 0x00, 0x00, 0x12, 0x00, 0x00, 0x00, 0x02, 0x00, 0x00, 0x00,
  0x20, 0x00, 0x00, 0x00, 0x04, 0x00, 0x00, 0x00, 0xf4, 0xff, 0xff, 0xff,
  0x19, 0x00, 0x00, 0x00, 0x00, 0x00, 0x00, 0x19, 0x0c, 0x00, 0x0c, 0x00,
  0x0b, 0x00, 0x00, 0x00, 0x00, 0x00, 0x04, 0x00, 0x0c, 0x00, 0x00, 0x00,
  0x09, 0x00, 0x00, 0x00, 0x00, 0x00, 0x00, 0x09
};

